00011001111101011101111100011101101111100011101000000100110111101111010010000001000011110010101110101101101000010100101010101000
01100010011011110011000110000111111011010011000100110111111000110001100100110001011111011010110100010000101100000010110001000011
01110100100111000100011101000110100100001010000100111111110000011111110100010010111001000101000000110000000100010011100001100110
11110101001100011100100001000011101110011110011010101101100101100111110010010011111111011111011101100010010000111010100000101001
10000100111000010001111000001011101001000011010101111000100110100011101111010001011001101110110100101010101000101000110000100011
00101000100000110011010001101110100111101001101001010011111000100101011010110011010101100100101100101011001010001100011111000100
01000110001111101010110011000010101100100000011010001111111010000111011000110011111100111100100111100001011001101111100011101011
00011001011110100100101000111111011101110111111011100110011011000010010011001010000010111111010001011100110011101000011001011000
00101000101101001100111111000001011111101100010001011101110001111101011100101000011000000111000010101001110010011001100001111100
01111011001010101011011001011111010001010000111101000011001001011100010000001011100010011011011110111101100100111010001111110110
11111000101111011001000101010100001001110010011001100001011001001111100110001001010100101110111010110101111000100100011110001000
01001110101000110001011110011110110000001101010100010001000001111101111101010101011001101110111010001001100010010000110101001110
01100100100010010111011011111111001101010101001110111101110111100111101101111110011110000001000111100100011101010110000010110011
01010001011100000111001000110110001110001001000110101101011111111111001010010101111000001011000001000110001011111011000001111000
01010101100111001000001110000101111000100100110110100100000100011011100101010100001000100111010110010001101000010101010001011100
10001000001100000010100111100001011110110111110111001101011110001010101111010001010000111011011101010001101101000100010101011100
00000011111000111000100111100110110010011110011000001011011010101110110110000111101101111110010000100110101110100110111111001100
10001101101000100110100100010111000100101011111100010000000000101100111110100110100001101110111111110011001010101001010011000100
00111010111100011101011110010101011011111011110001000000001001100010110101010110010001101100011100101001001100001001001000001111
10101010001000010010000011100100001111101010111110000001101001111111101000111011010100111100101100010101011110100110000111000101
10001010100011101111011000110110000110000101101101001101001110010111110101001101000101101001001111000100001000011001011001011010
11010001101011001011000111110010010100111001100111011001011101010111010000011001010001000001110101100100000111011000001011100010
00110101010100100100011010011010011011011000011100100010011110001000010111101010100111110111011000011111110111101011111010110011
01011100100000010110101001000010101010011010000111001000110011110000001100101100100111000110010011100011010010010011001100111011
10001001100110100100001100010111101101000000101100010000011111000111010010001010001110011011001111101111011000111001011011111001
01101110100011001010001110010111010000011011010101011010100000011010011101111101011011111000111110111001100101010010000100100110
01011110000001110010000000110110000110010011010001111010110001001110011110100101111001000101000100001101011111000011100111110110
10001101111011100100001010111010000101110001100011100101011111010010101001011110101011101001101111000101010011001001100011110111
01110010011100111011011010101001101010110001001101011001011001100010000100000000101110110011110101001110011001110110110100000111
10010001110010000111000110100110010011001110100100101000111000001101010000010011110000001110001101000011110001101011000011001101
01100110001000110111101011001110010111011000000000111111111000101100011100010011110010101111110011000001011100100010000000000111
11011011101011001011000110110011010111100100100100100011001101101011100110101011000001011010001110001101010110000000001111100100
11011101111011011110101101110110111000001010101001011010010101010110000001001101110011001001011110001110100110011001110110011110
01011100010100101010111111101111111001001110101110110011010110010010000011111000011110100100010010110000001101100010110101101100
10110110011010110011011010101011000000110101011110011100111110100000111011110111000101001110101110111010011000011011111000000001
11110001011001101001111010111000111101010010001000100110110100000101100011100011010011011001010010100110110100101010110100101100
10011001100001100100001100001000011111000110101000000101101010010110001010011000010100001011011111100011011101000001001011111000
01000011011000100001111100111111110011110011010000011100110101010111010100100111111111110000111001111010110010101010001110100101
01110100111111111011100110101101100000100111010110110101001000000011101001110010010001110011011001011101111111000110010110100011
00010001001100010001010111000111010100100111101100100101011001100011101110001010010000111010101111011101011010100100010111000001
00101110100011101101101000011110010000000000011000111101101011111100011110001001111100011110011011101001100100101001101001101010
00010111101010100010100011111101100111110110010101010101001101111010101111000110101010011000011111111011010101100100001010001011
10000100010111010000111011011010101100000010011110100100110011100100111111101100001110110110110001000100011011100111110010010101
01100100101101010011110011110011110110010101010110001111110101100001011101110000100110010100110000100001001110110010110001001100
01101001001101000101111000001111001100100000001000010110100111101100110011100010100100011110011111000111010111101010100010111001
01011011110000100110011001010111110101111000011100011011100001101010110100001101110011001100111100101101101100001001010101001100
10000001111101101000101000111011101100110110000000100100101100100101100011110101110101010111000111110000000001100011001011101001
00011000111010100010001010110100110011001000010001011011000000011001110100011111010000111101011110111111100111100111111110000000
01011001111111000111111110110111101001110111010000111000000101010010110000010100110100111011000100111000110001110000101111110111
00111001001111101100101100111111101110010100001111000000011100011000101011001010100010110000000010111110110101101010011110111010
11101000010111011110000001100000010010000110111111011001000010111100111100011100001001101110110000100101010111010100100101011110
00001001011010001010101111011100010001001010110000101010101110001100110111110011110010111110010111111010100101101101100100000011
10001101110111010000100001101001101100100101010110100100111111000010101111111000011111100011000001010100011011110101110100010011
10001111011000011010101001101010000010011100001110101110010000100110111111110000101101010100011101000000110111110110100010010011
01110011011000111010101110000111111011111000010001011010100010000000110101101111100010110100110000011011100111100010001100001100
01000011111010010001111100110010101101111110010110111010000001100101101111001001010000011110001101111100110010100100101000001111
00110011001000100011110110110001000111110111011010110001001001100111100111100111001100011101011110111110010011001110010110000011
01000010111000001011010110110011000100010111000000111101010001110011010000010010011100011110000100011100100000111010000100101110
10101101000111111100001001000000101001001110110001100010101100001111111001001010011110100110111001100011101100101110101001011010
10001000101010101010011100011101001001100111101111010001010110001011101001000011000011111010000101011101101000100101111000000110
10100110010110111100111000001011001100001011001111111010011111000100011001011111011111000010101110100111110110011001100001010110
01000100000000010101110010001000111110011101110111111101000010100010011100010100011111111100110011010101100010111001100101000111
11100100111101000100001011000101001001101001100111010000010011110000100001010001100101010101100110101111111110011000100001111010
00010010101111101000101111101101111001100100111000110111101000010010101101010011100011111110011110110000101100101110011000001000
