11111110110
11110111011
00001110111
11111100000
00001100100
11111011010
11111011000
11110001011
11110010110
11110100000
11110011110
00010001000
11111111001
00001010011
00000100000
00000110100
00000000100
00001100001
00000101111
11110101000
11101110001
00000110100
11110101000
11111101110
11111110010
00010011011
11111100100
11111000100
11111110010
11110100110
11111011110
11111110011
11111001111
00000001001
11111110111
00000010001
00001001010
00000101010
00001010000
11111000001
00000101011
11110100110
11110101101
00000101001
00000101111
00000101011
00001110101
00000001010
00001100101
00010010001
11110110000
00000110000
11101011100
11111000110
00000101110
00001101011
11110010011
00001101011
00001001101
00001001110
00001001110
11110110000
11111000001
00001101010
00000101100
11111010101
11111111011
11111000001
11110010011
00000110110
00001001011
11110101010
11111100001
11111001111
00000111111
11111000010
00010000101
00000100010
11110011100
11101010001
11110001001
11110011011
00000100010
00000101111
00001011000
11111111111
00001111011
11101111100
11101010110
11110110111
11110110100
00001101110
11111111101
11111111110
00001110101
11110000100
11111011100
11111100001
11110010100
11111110100
11111001000
00001100111
11110101011
00001000101
00000000101
00001000000
11111000011
00000000101
00001011100
00001101000
11110011011
00000101100
11110100101
00010000010
11111110000
00000011001
11111011101
00000011100
11110101111
00000110001
00000111001
00001000000
11110111010
00010100111
11110101111
11111111001
11111110010
11110101010
