1110110111111011101101000100100101010111010101011010001111010111
0001001101000100000001110011100011010110011010011110011010001000
1101011111100101110100101000011100111111110011110101001110100001
1111111011010000101001110110111010010100100111010001011001101110
1000011110101000001111111001100000101001001010000010100000111110
0010010011000100010111011111010110001000100001011010000001001010
1101101111100111000001001001010011011010000000101101100101111011
0111011100000101110111000011111100110111001100100000110111001100
0110010101010011110110100101011011001000101001010111011000111101
0111001010101011000100010100001001001010101110100010110000100101
