0001100000100001010111001001010110111000001000100010110000111010
0111001001111110000001010110101111010110000111001010001101000110
0111010011101000001100100100101000110010100110000110001010101010
1011000101100110001001110010110111111011010001011100001010000001
1000010111110001011110011111000111001000100011011111110000110000
0011101000011010010000110111001011100010111100000000110000101110
0100001001010000101110000110101100100100110001000000011111001001
1001000101000110110001101001010110011101010011101101111110100000
1010110010111010111011011101010110001010110101111000100101010011
1100100100000100101000100001110011110110001001111011111101001010
1101101111110101111101000001101110110111010110111101011111010011
1011001110100111001000101000100001000011001110101110100000101011
0110001101101010000011001101010110100010111000011111100100111001
1110001010100010000011000111000110011010101110101110100000100011
0100011101010000110010101011101001111110110001110100001010111001
1101110000111000101100010010101010100011001100000010111100101100
1001001011100010101011000100100111010010100000100111011001111001
1011000110001100011010111001011010001000100011001110000000101110
0100011001001101010111010110111111100010010101011011011011010000
1100110001111100001011000000111100110111100110001000000111000100
1001101110000001110000010000001011010110111110101101111110001101
1010111011011000001010100000100001110101001111001000000111011100
1010100111011110001010111101101011111100101011111101011100111011
1110000010110011111001001100010111001111000000001101001111010001
0100001010011011101101100101111101110011011100011001001011000111
0011011011101001100101010000001011000001011101000011110000100011
0000010100001101100111000011110111110110010100111110110111000001
1000000101111100011011101111000110010100111101111101000111010000
1000110101011000000000100001101001111110111010100101110000011101
1110010101111110111110001110011011000111110011011101001000010011
0111111101011100110011111111011111100101101111101100011101001000
1101100111001011011000001100100101100111010111101100101011011011
1111111000010010100000011000100011010110011101111100101100100101
0100000111010011101001100100011111011101100101010011001000000101
1101101110101111001100111000100011011000001010101100101100111111
1011011110001101010111001011001100011001011111100100100111001100
1101010010000101101110110010111100001100010100010110011010000100
1100110111101000001100101001011101011100010001011001001110110011
1000011110100011011101000001100100100111010011101000101110010011
0101000101101001101001110111101000110100010101101100011111000100
0011010010010100111101110100011011000000000001010001011100101110
0001000110011011100010000000010101101011010100101110110111110101
1111100100100001111100010110010011011111011000101011000111111000
1100110100011101011011000111100000100111000100001000100011011110
1000010101000011011111001001010111001001000000000011000000110111
0001101111110011111100100110000000100110111101011011101110100101
1001011101101000110110101000100011111001101011000110010010011001
0110100001011111010111111100110101100011011101000110110100011110
0001001100001111000101010001000001100010001100000110110110011110
0000110111100001001011010111100010000000010000010110001000111110
0111100100101110000000100011011101010011101000101001110111101101
0110110010011000010001001110101011100110110011011010001111011111
0011101010001101100011010110111010100100100101011011011101001100
1111001110001111000010000001001000111111111110100000110001000101
0110011101000000100000100110001111010000000111010001011100101001
0111011011111101100111000001101101001011110101010010000011010101
1111111010001000000100010110011000111100101111100001101000100001
1110011110101101100001111011111011110101001100000100110001011010
0100011101100101101111101001111100101011110000100101100010101001
1001100000001111000011101001000111110100010110101101100000111000
1000101100001101100010111001000001101000101010000011101000011110
1001000111111100001101011011100110000101111111001000100111001010
1101110010011100111100010000101100100001111111100010010111000110
0110000011010110000111010101000011001100110000011110000001000011
1010000011110111110100100110011100000000110011010111000000110000
1011011011111100110111001010011010011100101010100011010110101000
1011101100101111101111001111100111001111010001001000110011110101
1111111010111110000111001000010100010111000100110000000111110000
0111100000111011111110000001000100110011011011111111111110110011
1011011111010000111011101110011000100100101111011011011001101100
0000111010011101010100010111001000101011111100000110110100111101
0110100010111011111010110110101100000101111101010011111110000101
1001110100100101110000101010000101111001111010100101110110000000
0000100100011011001010100101000011110010011110100101111110111011
0100011010001000010100110110000101110110001110100001111010000000
0111111000011111001101000101011001101010000100111011110001001111
0000000111101000000111111101000111001001101001010110101100101000
0000000000011110111010010111000010100100011001111010001010001100
0011011101001000111100101001011100110111010010010101001011111001
1101111001110101100111000110011110110100100001110001001110011011
0011001001000100110000110011111010000100110111101101011000000011
0111111010111101001101000110011011011111100001111001100101101100
0111101010011110100000001111100001000100111000000010110011101100
0101011000101000100110111000100001101100101110101000110011101110
1101000101001000000000111101101011010100011101000101101000111101
1111110000010000111011110111000110110110000001100010110000011111
1000111100110011111110100101101001000111001000011111101000110101
1101001101000001100100101100100100010111111110111101011111010111
0101101101110101111110001101011110111001110011011011000111010101
0011111110110010111100110010011001100000101111110011011111100111
1101100111110111110000111000111100101011101010101011100101111001
0011000111001111000011101011101010011010000000111000100010000010
1100111000110000010101000101101000100101001101000010001000101110
0101100101110011111001110100101011011110111111010011011010100101
1001010001110001011110101101010110101111110011010000010110101001
1101111001001011011111001111110110101001010011111001010111011011
1000001011111010010010011101001111111001110010110101000010001111
0001001100001101010011011001111000001111111010100001110100110100
1011111011101000111001011100000001111100110101111111000110101011
0110000101100011010100100100000001100111010000111101101111010101
1000110111010000001000101110100110100111110001011101001111010010
1000000101101100100111101011100110010011001011010110100111011110
0001110000000100110000111000110010111100010010010101001010101010
1000011011110011011100111111011100001011110111010010001000111110
1100100111110011100000100100010010010110100001011101011101111111
0001001110101000000100111011111100111111011010001110110110001010
1100111000101111111110001010101001101011001101000000100000110011
0110000001001001101101100110001111011010110111010111011000101011
0000010110010100110101110011000110000111001110010010111110001110
0000001100001101000001100111110001001010011010111111111010000000
0001101101100100110100101000111001010101111110111101111101110101
1011000011011110000011011100100010100000000100001010110001001110
0001111111000100011011101001010010110100100011000101000011101111
1000011000101011100100000000100000000011011000010011110110110001
0111001001001100100100110110111001110110001110110100011011100001
0010001010000110011010111011010010101000101001110001100000011100
1111101010010000100000100011100011110000101110011011110100111110
0100110100110011110010101000100011110011001101010100100010010001
1000010101100000101011111000000100101100110000111100001100110001
0000010001110001100100010110100111010111000001011111101011000100
1000011001101000110101101011010110001111011010111100010010000000
0110011111010111110111001011010101001001100101101010000000101110
1011101011001100000001111111000101011110100010101100000001000010
0000000111001111000010111011000010001000001010001110110000101010
1001001110110111101010011000010011011000110111100110001101100011
0010010011010011111100000111111111010100001101001010001101011100
0110101001011000001011110111101010000010110000001111110111111110
0101101000001000001100111001111000100111011010101001110110000100
