1011101000
1011001111
1001010111
0111001101
1001001000
1011110110
0111101101
1110101110
1011111001
1111011010
1010101001
1001000010
1000100001
0110011100
1000001011
1010001111
1011000110
0010010110
1001100000
1010110111
0000110110
1101111100
0111100010
0101110001
0010111000
1001010011
0101010100
0100111110
1101100100
0011011110
0011000111
1010010100
0101011010
1100001011
0010100100
1111001100
0010111011
1111000100
1110001101
1010100100
0011010011
1110000000
0100100111
1001000101
0111100001
1011010010
0010001101
1111010010
1100011000
0110001010
1100110011
0011001010
0000101101
0101000111
1111000010
1010001100
1110000100
1001011100
0011101011
1000101010
0101111110
1001100111
1001111000
1010001011
